const unsigned char model2[] = {
  0x1c, 0x00, 0x00, 0x00, 0x54, 0x46, 0x4c, 0x33, 0x00, 0x00, 0x12, 0x00,
  0x1c, 0x00, 0x04, 0x00, 0x08, 0x00, 0x0c, 0x00, 0x10, 0x00, 0x14, 0x00,
  0x00, 0x00, 0x18, 0x00, 0x12, 0x00, 0x00, 0x00, 0x03, 0x00, 0x00, 0x00,
  0x98, 0x0b, 0x00, 0x00, 0x10, 0x00, 0x00, 0x00, 0x1c, 0x00, 0x00, 0x00,
  0x2c, 0x00, 0x00, 0x00, 0x0c, 0x00, 0x00, 0x00, 0x01, 0x00, 0x00, 0x00,
  0xf4, 0x00, 0x00, 0x00, 0x01, 0x00, 0x00, 0x00, 0xbc, 0x00, 0x00, 0x00,
  0x0f, 0x00, 0x00, 0x00, 0x54, 0x4f, 0x43, 0x4f, 0x20, 0x43, 0x6f, 0x6e,
  0x76, 0x65, 0x72, 0x74, 0x65, 0x64, 0x2e, 0x00, 0x0d, 0x00, 0x00, 0x00,
  0x90, 0x00, 0x00, 0x00, 0x84, 0x00, 0x00, 0x00, 0x70, 0x00, 0x00, 0x00,
  0x5c, 0x00, 0x00, 0x00, 0x50, 0x00, 0x00, 0x00, 0x44, 0x00, 0x00, 0x00,
  0x3c, 0x00, 0x00, 0x00, 0x34, 0x00, 0x00, 0x00, 0x2c, 0x00, 0x00, 0x00,
  0x24, 0x00, 0x00, 0x00, 0x18, 0x00, 0x00, 0x00, 0x10, 0x00, 0x00, 0x00,
  0x04, 0x00, 0x00, 0x00, 0xb2, 0xff, 0xff, 0xff, 0x5c, 0x00, 0x00, 0x00,
  0x74, 0xf5, 0xff, 0xff, 0xbe, 0xff, 0xff, 0xff, 0x84, 0x01, 0x00, 0x00,
  0x80, 0xf5, 0xff, 0xff, 0x84, 0xf5, 0xff, 0xff, 0x88, 0xf5, 0xff, 0xff,
  0x8c, 0xf5, 0xff, 0xff, 0xd6, 0xff, 0xff, 0xff, 0x28, 0x06, 0x00, 0x00,
  0xde, 0xff, 0xff, 0xff, 0x9c, 0x07, 0x00, 0x00, 0xf6, 0xff, 0xff, 0xff,
  0x04, 0x08, 0x00, 0x00, 0x00, 0x00, 0x06, 0x00, 0x0a, 0x00, 0x04, 0x00,
  0x06, 0x00, 0x00, 0x00, 0x4c, 0x08, 0x00, 0x00, 0x00, 0x00, 0x06, 0x00,
  0x08, 0x00, 0x04, 0x00, 0x06, 0x00, 0x00, 0x00, 0xb0, 0x09, 0x00, 0x00,
  0xc8, 0xf5, 0xff, 0xff, 0x06, 0x00, 0x00, 0x00, 0x31, 0x2e, 0x31, 0x34,
  0x2e, 0x30, 0x00, 0x00, 0xa0, 0xfa, 0xff, 0xff, 0x08, 0x00, 0x00, 0x00,
  0x0c, 0x00, 0x00, 0x00, 0x13, 0x00, 0x00, 0x00, 0x6d, 0x69, 0x6e, 0x5f,
  0x72, 0x75, 0x6e, 0x74, 0x69, 0x6d, 0x65, 0x5f, 0x76, 0x65, 0x72, 0x73,
  0x69, 0x6f, 0x6e, 0x00, 0x0c, 0x00, 0x14, 0x00, 0x04, 0x00, 0x08, 0x00,
  0x0c, 0x00, 0x10, 0x00, 0x0c, 0x00, 0x00, 0x00, 0x20, 0x00, 0x00, 0x00,
  0x14, 0x00, 0x00, 0x00, 0x08, 0x00, 0x00, 0x00, 0x64, 0x09, 0x00, 0x00,
  0x01, 0x00, 0x00, 0x00, 0x00, 0x00, 0x00, 0x00, 0x01, 0x00, 0x00, 0x00,
  0x01, 0x00, 0x00, 0x00, 0x0b, 0x00, 0x00, 0x00, 0xa8, 0x04, 0x00, 0x00,
  0xd8, 0x04, 0x00, 0x00, 0xa0, 0x06, 0x00, 0x00, 0x24, 0x07, 0x00, 0x00,
  0x54, 0x04, 0x00, 0x00, 0x5c, 0x00, 0x00, 0x00, 0x70, 0x07, 0x00, 0x00,
  0x10, 0x00, 0x00, 0x00, 0xfc, 0x03, 0x00, 0x00, 0x08, 0x05, 0x00, 0x00,
  0xd4, 0x08, 0x00, 0x00, 0x3e, 0xf7, 0xff, 0xff, 0x10, 0x00, 0x00, 0x00,
  0x0b, 0x00, 0x00, 0x00, 0x14, 0x00, 0x00, 0x00, 0x30, 0x00, 0x00, 0x00,
  0x02, 0x00, 0x00, 0x00, 0x01, 0x00, 0x00, 0x00, 0x46, 0x00, 0x00, 0x00,
  0x19, 0x00, 0x00, 0x00, 0x73, 0x65, 0x71, 0x75, 0x65, 0x6e, 0x74, 0x69,
  0x61, 0x6c, 0x5f, 0x32, 0x2f, 0x64, 0x65, 0x6e, 0x73, 0x65, 0x5f, 0x37,
  0x2f, 0x52, 0x65, 0x6c, 0x75, 0x00, 0x00, 0x00, 0x9c, 0xf6, 0xff, 0xff,
  0x82, 0xf7, 0xff, 0xff, 0x10, 0x00, 0x00, 0x00, 0x0a, 0x00, 0x00, 0x00,
  0x14, 0x00, 0x00, 0x00, 0x4c, 0x00, 0x00, 0x00, 0x02, 0x00, 0x00, 0x00,
  0x46, 0x00, 0x00, 0x00, 0x03, 0x00, 0x00, 0x00, 0x34, 0x00, 0x00, 0x00,
  0x73, 0x65, 0x71, 0x75, 0x65, 0x6e, 0x74, 0x69, 0x61, 0x6c, 0x5f, 0x32,
  0x2f, 0x64, 0x65, 0x6e, 0x73, 0x65, 0x5f, 0x37, 0x2f, 0x4d, 0x61, 0x74,
  0x4d, 0x75, 0x6c, 0x2f, 0x52, 0x65, 0x61, 0x64, 0x56, 0x61, 0x72, 0x69,
  0x61, 0x62, 0x6c, 0x65, 0x4f, 0x70, 0x2f, 0x74, 0x72, 0x61, 0x6e, 0x73,
  0x70, 0x6f, 0x73, 0x65, 0x00, 0x00, 0x00, 0x00, 0xfc, 0xf6, 0xff, 0xff,
  0x48, 0x03, 0x00, 0x00, 0x00, 0x58, 0xf6, 0xb9, 0xec, 0x9f, 0xf0, 0xbd,
  0x40, 0x56, 0xee, 0x3b, 0xdc, 0x08, 0x1a, 0xbd, 0xd0, 0xda, 0x5e, 0xbe,
  0xd5, 0x49, 0x92, 0xbe, 0x12, 0x57, 0x71, 0x3d, 0x73, 0xb9, 0x78, 0x3e,
  0x88, 0x16, 0x6e, 0xbd, 0xd8, 0xc5, 0x1d, 0xbe, 0xd3, 0x0f, 0xbf, 0x3e,
  0x88, 0x3e, 0x3d, 0x3e, 0x98, 0x71, 0x72, 0xbe, 0x93, 0xb0, 0x3f, 0xbe,
  0x22, 0xa7, 0x68, 0x3e, 0xd8, 0xe9, 0x5a, 0x3e, 0x84, 0x2e, 0x6a, 0x3e,
  0xc0, 0x3c, 0x96, 0xbc, 0xfe, 0x7f, 0x8a, 0x3e, 0xd0, 0x73, 0xe8, 0xbc,
  0x5c, 0x8b, 0x99, 0xbd, 0x24, 0xba, 0x55, 0xbd, 0x4b, 0x7c, 0x5e, 0xbe,
  0x18, 0x85, 0x4f, 0x3d, 0x6d, 0x3a, 0x52, 0x3d, 0xd2, 0x63, 0x27, 0x3e,
  0x8a, 0x58, 0x67, 0xbe, 0x3d, 0x1b, 0x9c, 0x3e, 0x8c, 0x1e, 0xae, 0xbd,
  0x5a, 0xbb, 0xea, 0xbd, 0xa2, 0x39, 0x37, 0x3e, 0x55, 0xbc, 0x22, 0x3e,
  0xfa, 0x4e, 0x65, 0x3e, 0x5e, 0x08, 0xfc, 0xbd, 0x58, 0xf3, 0xc1, 0x3d,
  0x00, 0x18, 0x37, 0xbc, 0x2e, 0x68, 0x9a, 0xbd, 0xbb, 0x35, 0x87, 0xbe,
  0x7b, 0xea, 0x81, 0xbe, 0x53, 0xd7, 0x57, 0x3d, 0x44, 0x5f, 0x3c, 0xbe,
  0xf4, 0x0f, 0xf6, 0x3d, 0xe2, 0x07, 0x7c, 0x3e, 0x1c, 0x00, 0x89, 0x3e,
  0x40, 0x75, 0xce, 0x3b, 0xad, 0x79, 0xfb, 0xbd, 0xf1, 0x75, 0x23, 0x3e,
  0x80, 0x91, 0x11, 0x3c, 0x60, 0xeb, 0xd9, 0xbc, 0xc0, 0xce, 0x2b, 0xbc,
  0x34, 0x16, 0x46, 0xbd, 0x3b, 0x21, 0x73, 0xbe, 0xcc, 0xf2, 0x5c, 0x3e,
  0xcc, 0xf9, 0xf5, 0x3d, 0x80, 0x52, 0x46, 0x3e, 0x46, 0x04, 0x34, 0xbc,
  0x40, 0x3c, 0xde, 0x3c, 0xfe, 0x82, 0x81, 0x3e, 0xd3, 0x8a, 0x1d, 0xbe,
  0xb0, 0xa1, 0xd7, 0xbd, 0xb9, 0x7f, 0x78, 0x3d, 0x4d, 0xe5, 0x26, 0x3e,
  0xc8, 0x6f, 0x33, 0x3e, 0x67, 0xf1, 0x5c, 0x3e, 0x56, 0x5c, 0xfb, 0x3d,
  0xfc, 0x6e, 0x92, 0xbe, 0x36, 0x15, 0x2d, 0x3e, 0xaa, 0x9e, 0x29, 0x3e,
  0xee, 0x47, 0x5a, 0x3e, 0x0e, 0xb9, 0x03, 0xbe, 0xde, 0xd1, 0x04, 0xbe,
  0xb8, 0xe0, 0x9e, 0x3d, 0x5a, 0xfc, 0xec, 0x3d, 0x8a, 0x7c, 0x51, 0xbe,
  0xfc, 0xe8, 0xf7, 0x3d, 0xfc, 0xcf, 0x8d, 0x3e, 0x11, 0x13, 0x57, 0x3e,
  0xae, 0x58, 0x14, 0xbe, 0x06, 0xbc, 0x28, 0xbd, 0x53, 0x88, 0xaa, 0x3d,
  0xa0, 0x4c, 0x2f, 0x3d, 0x46, 0x37, 0x86, 0x3d, 0x35, 0x16, 0xb2, 0x3d,
  0x1a, 0x47, 0x55, 0xbe, 0x0c, 0x9a, 0x2b, 0x3e, 0x1f, 0xda, 0x8b, 0xbb,
  0x10, 0x41, 0x21, 0xbe, 0xe6, 0xa3, 0x92, 0x3c, 0xa9, 0x42, 0x52, 0xbe,
  0x9e, 0xdb, 0x32, 0xbe, 0x80, 0x74, 0xd0, 0xbd, 0x16, 0x6b, 0x59, 0xbe,
  0x62, 0x49, 0x2d, 0xbe, 0x18, 0x2d, 0x0f, 0x3e, 0x99, 0xbf, 0x96, 0x3e,
  0xaa, 0xca, 0x2b, 0x3e, 0x06, 0x45, 0x6e, 0xbe, 0xe7, 0x5c, 0x34, 0x3e,
  0x92, 0xc1, 0x88, 0xbe, 0x40, 0xdd, 0x3c, 0xbe, 0x9e, 0xa3, 0x4e, 0x3e,
  0x98, 0xdc, 0x5c, 0xbe, 0xad, 0x6c, 0x15, 0x3e, 0x16, 0x14, 0x95, 0xbd,
  0xa8, 0x21, 0x8e, 0x3d, 0x57, 0x13, 0x23, 0x3e, 0x9d, 0x6c, 0xf7, 0x3d,
  0xf5, 0xa8, 0x82, 0xbe, 0x56, 0x07, 0x7f, 0x3d, 0x4b, 0xef, 0xa9, 0xbe,
  0x32, 0xf8, 0x3e, 0x3e, 0x03, 0xcf, 0x89, 0x3e, 0x06, 0x3a, 0xe6, 0xbd,
  0xc7, 0x15, 0x80, 0x3e, 0x60, 0x4b, 0x52, 0xbe, 0xc8, 0xab, 0x77, 0xbe,
  0x98, 0xc5, 0x84, 0xbe, 0x53, 0x11, 0x18, 0x3e, 0xb4, 0xd7, 0x78, 0xbe,
  0x70, 0x54, 0x2b, 0x3e, 0x6c, 0xd4, 0x14, 0xbe, 0xd4, 0x01, 0x28, 0xbe,
  0xba, 0xdb, 0x4b, 0xbe, 0x4a, 0x01, 0x4f, 0xbe, 0x08, 0x5d, 0xed, 0x3d,
  0x00, 0x93, 0x25, 0xbd, 0x5f, 0x46, 0xbc, 0x3b, 0x76, 0x43, 0x28, 0x3e,
  0x03, 0x2c, 0x86, 0xbe, 0x65, 0x20, 0x16, 0xbe, 0xbc, 0x63, 0x57, 0xbd,
  0xdc, 0xaa, 0x31, 0x3e, 0x18, 0x95, 0x88, 0xbd, 0xf6, 0xf8, 0x61, 0xbe,
  0xf8, 0xcd, 0x35, 0x3e, 0xaa, 0xe8, 0x3e, 0xbe, 0x3f, 0x3c, 0x8d, 0xbe,
  0x72, 0x1c, 0x17, 0x3e, 0xf9, 0xcf, 0x30, 0xbe, 0x27, 0xd4, 0x01, 0xbe,
  0x3a, 0x0e, 0x08, 0x3e, 0x68, 0xdf, 0xef, 0xbd, 0xaa, 0x00, 0x3a, 0x3e,
  0xc0, 0x91, 0x52, 0x3d, 0x65, 0x17, 0x62, 0x3e, 0x8d, 0x75, 0xda, 0xbc,
  0x40, 0x82, 0x06, 0x3d, 0x1f, 0x64, 0x2b, 0x3e, 0x8f, 0x46, 0x39, 0x3e,
  0x74, 0x59, 0x61, 0xbe, 0x0f, 0xae, 0x2e, 0x3e, 0xc5, 0x28, 0xf5, 0xbd,
  0x6d, 0x4c, 0x7b, 0xbe, 0x81, 0xdd, 0xfc, 0xbd, 0x8a, 0x9d, 0x3e, 0x3e,
  0xc6, 0xcb, 0x89, 0xbe, 0x17, 0x20, 0xeb, 0xbd, 0x24, 0x21, 0xa8, 0x3e,
  0xd2, 0xbf, 0x6d, 0xbe, 0xf1, 0xf4, 0x03, 0x3e, 0xd5, 0x30, 0x97, 0xbd,
  0x50, 0x26, 0x3c, 0x3e, 0x5c, 0xc2, 0x2e, 0xbe, 0x8e, 0x9e, 0xf0, 0xbd,
  0x89, 0xcc, 0x90, 0x3e, 0x16, 0x36, 0x3f, 0x3e, 0xd1, 0x2b, 0x08, 0xbe,
  0xec, 0x09, 0x32, 0x3e, 0x2e, 0xc2, 0x8b, 0xbe, 0x12, 0xab, 0x5b, 0x3e,
  0x20, 0x27, 0x52, 0xbe, 0x46, 0xb6, 0x11, 0xbe, 0x7c, 0xac, 0xc7, 0x3d,
  0xf0, 0x71, 0xb3, 0xbc, 0xd4, 0x1e, 0x79, 0xbe, 0xe0, 0x08, 0xab, 0x3c,
  0xb2, 0x7b, 0x40, 0x3e, 0x41, 0xf7, 0xea, 0x3b, 0x62, 0x5f, 0x35, 0xbe,
  0x2c, 0x56, 0x2e, 0x3e, 0xa4, 0xa0, 0x99, 0x3d, 0x49, 0x1e, 0x5e, 0xbd,
  0xba, 0x5c, 0xa2, 0xbd, 0x19, 0x5d, 0x17, 0xbe, 0x90, 0x88, 0x10, 0x3d,
  0xe0, 0xa7, 0x64, 0xbd, 0xda, 0x0d, 0xd9, 0x3d, 0xa8, 0x28, 0x15, 0x3e,
  0xf4, 0x1e, 0x59, 0x3e, 0x00, 0x71, 0xd5, 0xbd, 0x6b, 0x09, 0x03, 0x3e,
  0x26, 0xed, 0x76, 0xbe, 0x37, 0xcf, 0x86, 0xbe, 0x65, 0xe9, 0x72, 0x3e,
  0x45, 0x6d, 0x61, 0xbe, 0xb9, 0xe8, 0x69, 0xbe, 0x74, 0xf8, 0xe8, 0xbd,
  0xda, 0x5c, 0x78, 0x3e, 0x75, 0x45, 0x40, 0xbe, 0x24, 0xe5, 0x01, 0xbe,
  0x00, 0xd0, 0x4a, 0xbc, 0xab, 0xd7, 0xe9, 0xbd, 0xe5, 0x84, 0xa3, 0x3e,
  0x88, 0x61, 0x38, 0x3d, 0xa0, 0x6c, 0xa6, 0x3d, 0x7d, 0x98, 0x29, 0xbd,
  0x08, 0x33, 0x62, 0xbe, 0x8d, 0x24, 0xa5, 0x3e, 0xdc, 0xcf, 0x08, 0xbd,
  0x8c, 0x06, 0x78, 0xbd, 0x2e, 0xfb, 0xff, 0xff, 0x10, 0x00, 0x00, 0x00,
  0x09, 0x00, 0x00, 0x00, 0x14, 0x00, 0x00, 0x00, 0x34, 0x00, 0x00, 0x00,
  0x02, 0x00, 0x00, 0x00, 0x01, 0x00, 0x00, 0x00, 0x01, 0x00, 0x00, 0x00,
  0x1c, 0x00, 0x00, 0x00, 0x73, 0x65, 0x71, 0x75, 0x65, 0x6e, 0x74, 0x69,
  0x61, 0x6c, 0x5f, 0x32, 0x2f, 0x64, 0x65, 0x6e, 0x73, 0x65, 0x5f, 0x38,
  0x2f, 0x42, 0x69, 0x61, 0x73, 0x41, 0x64, 0x64, 0x00, 0x00, 0x00, 0x00,
  0x90, 0xfa, 0xff, 0xff, 0x76, 0xfb, 0xff, 0xff, 0x10, 0x00, 0x00, 0x00,
  0x08, 0x00, 0x00, 0x00, 0x14, 0x00, 0x00, 0x00, 0x30, 0x00, 0x00, 0x00,
  0x02, 0x00, 0x00, 0x00, 0x01, 0x00, 0x00, 0x00, 0x03, 0x00, 0x00, 0x00,
  0x19, 0x00, 0x00, 0x00, 0x73, 0x65, 0x71, 0x75, 0x65, 0x6e, 0x74, 0x69,
  0x61, 0x6c, 0x5f, 0x32, 0x2f, 0x64, 0x65, 0x6e, 0x73, 0x65, 0x5f, 0x36,
  0x2f, 0x52, 0x65, 0x6c, 0x75, 0x00, 0x00, 0x00, 0xd4, 0xfa, 0xff, 0xff,
  0xba, 0xfb, 0xff, 0xff, 0x10, 0x00, 0x00, 0x00, 0x07, 0x00, 0x00, 0x00,
  0x14, 0x00, 0x00, 0x00, 0x20, 0x00, 0x00, 0x00, 0x02, 0x00, 0x00, 0x00,
  0x01, 0x00, 0x00, 0x00, 0x01, 0x00, 0x00, 0x00, 0x08, 0x00, 0x00, 0x00,
  0x49, 0x64, 0x65, 0x6e, 0x74, 0x69, 0x74, 0x79, 0x00, 0x00, 0x00, 0x00,
  0x08, 0xfb, 0xff, 0xff, 0xee, 0xfb, 0xff, 0xff, 0x10, 0x00, 0x00, 0x00,
  0x06, 0x00, 0x00, 0x00, 0x14, 0x00, 0x00, 0x00, 0x24, 0x00, 0x00, 0x00,
  0x02, 0x00, 0x00, 0x00, 0x01, 0x00, 0x00, 0x00, 0x03, 0x00, 0x00, 0x00,
  0x07, 0x00, 0x00, 0x00, 0x69, 0x6e, 0x70, 0x75, 0x74, 0x5f, 0x31, 0x00,
  0x08, 0x00, 0x0c, 0x00, 0x04, 0x00, 0x08, 0x00, 0x08, 0x00, 0x00, 0x00,
  0x10, 0x00, 0x00, 0x00, 0x04, 0x00, 0x00, 0x00, 0x01, 0x00, 0x00, 0x00,
  0x00, 0x00, 0x7f, 0x43, 0x01, 0x00, 0x00, 0x00, 0x00, 0x00, 0x00, 0x00,
  0x3e, 0xfc, 0xff, 0xff, 0x10, 0x00, 0x00, 0x00, 0x05, 0x00, 0x00, 0x00,
  0x14, 0x00, 0x00, 0x00, 0x4c, 0x00, 0x00, 0x00, 0x02, 0x00, 0x00, 0x00,
  0x01, 0x00, 0x00, 0x00, 0x46, 0x00, 0x00, 0x00, 0x34, 0x00, 0x00, 0x00,
  0x73, 0x65, 0x71, 0x75, 0x65, 0x6e, 0x74, 0x69, 0x61, 0x6c, 0x5f, 0x32,
  0x2f, 0x64, 0x65, 0x6e, 0x73, 0x65, 0x5f, 0x38, 0x2f, 0x4d, 0x61, 0x74,
  0x4d, 0x75, 0x6c, 0x2f, 0x52, 0x65, 0x61, 0x64, 0x56, 0x61, 0x72, 0x69,
  0x61, 0x62, 0x6c, 0x65, 0x4f, 0x70, 0x2f, 0x74, 0x72, 0x61, 0x6e, 0x73,
  0x70, 0x6f, 0x73, 0x65, 0x00, 0x00, 0x00, 0x00, 0xb8, 0xfb, 0xff, 0xff,
  0x18, 0x01, 0x00, 0x00, 0x44, 0x29, 0x7e, 0xbe, 0x6c, 0x44, 0x93, 0xbd,
  0x1a, 0x3c, 0xbf, 0xbe, 0xd5, 0x87, 0xf2, 0xbe, 0xf6, 0x31, 0x08, 0xbe,
  0xe9, 0x53, 0x84, 0xbe, 0x2d, 0x18, 0x8d, 0xbe, 0xe1, 0xea, 0x0d, 0xbe,
  0xd3, 0x8c, 0xf3, 0x3d, 0x35, 0x6f, 0x69, 0xbe, 0xfe, 0x21, 0x9a, 0x3d,
  0x70, 0xe7, 0xbc, 0xbc, 0x2b, 0xf8, 0x5c, 0xbe, 0xcc, 0xda, 0x0b, 0x3e,
  0xed, 0xb9, 0xdc, 0xbd, 0x1c, 0x14, 0x52, 0x3e, 0xe8, 0xf2, 0x0e, 0x3e,
  0xc5, 0x34, 0x54, 0x3e, 0x34, 0x7f, 0xa8, 0x3d, 0x34, 0xb4, 0x75, 0xbe,
  0x01, 0xba, 0x54, 0xbe, 0x44, 0xb5, 0x8a, 0x3d, 0x07, 0x3c, 0x4b, 0xbe,
  0x41, 0xd4, 0x89, 0xbe, 0xe5, 0xe1, 0x54, 0x3e, 0x6a, 0xa2, 0x0d, 0xbe,
  0xae, 0x1a, 0xec, 0x3d, 0x7a, 0x73, 0x1e, 0xbe, 0x4f, 0x29, 0xf4, 0x3d,
  0x73, 0x7a, 0x6b, 0x3e, 0x3a, 0x61, 0x62, 0x3e, 0x5b, 0x57, 0x7c, 0xbe,
  0x0e, 0xa3, 0x39, 0xbe, 0x90, 0x48, 0x68, 0x3d, 0xd8, 0x4b, 0xeb, 0x3d,
  0x57, 0x51, 0x3b, 0xbe, 0x48, 0x3f, 0x97, 0xbc, 0xc3, 0xeb, 0x95, 0xbd,
  0xd0, 0x6a, 0x48, 0x3d, 0x00, 0xf8, 0x19, 0xbe, 0x2a, 0x0f, 0x0b, 0x3e,
  0xea, 0x0c, 0x76, 0x3e, 0x6e, 0x9a, 0xd8, 0x3d, 0xe0, 0x5a, 0x8a, 0xbe,
  0x90, 0x49, 0xa6, 0x3d, 0xea, 0x42, 0x47, 0x3e, 0x68, 0x4e, 0x81, 0x3d,
  0x14, 0xcc, 0xaf, 0x3d, 0x68, 0xa1, 0x02, 0x3d, 0xc3, 0xae, 0x34, 0xbe,
  0xe3, 0x42, 0xf6, 0x3d, 0x84, 0x23, 0x64, 0x3d, 0xfb, 0x8d, 0xbc, 0xbe,
  0xa2, 0x8c, 0xe1, 0x3c, 0xd3, 0xd5, 0x8a, 0x3e, 0x3c, 0xa3, 0x49, 0xbe,
  0xfa, 0x8b, 0x03, 0xbe, 0x70, 0x4e, 0xfe, 0xbd, 0x8c, 0xc6, 0x37, 0x3e,
  0x89, 0xc6, 0x72, 0x3e, 0xe6, 0x45, 0xa5, 0xbe, 0xba, 0x32, 0x39, 0x3e,
  0xc2, 0x18, 0xeb, 0x3d, 0xf3, 0x3a, 0x65, 0x3e, 0x5f, 0x42, 0xaa, 0x3d,
  0x12, 0x6b, 0xcd, 0xbd, 0x80, 0x25, 0xd3, 0xbc, 0xd9, 0x80, 0xa6, 0xbe,
  0xa7, 0x0f, 0x01, 0xbe, 0xd9, 0xbd, 0x2f, 0xbe, 0xba, 0xfd, 0xff, 0xff,
  0x10, 0x00, 0x00, 0x00, 0x04, 0x00, 0x00, 0x00, 0x14, 0x00, 0x00, 0x00,
  0x4c, 0x00, 0x00, 0x00, 0x02, 0x00, 0x00, 0x00, 0x03, 0x00, 0x00, 0x00,
  0x03, 0x00, 0x00, 0x00, 0x34, 0x00, 0x00, 0x00, 0x73, 0x65, 0x71, 0x75,
  0x65, 0x6e, 0x74, 0x69, 0x61, 0x6c, 0x5f, 0x32, 0x2f, 0x64, 0x65, 0x6e,
  0x73, 0x65, 0x5f, 0x36, 0x2f, 0x4d, 0x61, 0x74, 0x4d, 0x75, 0x6c, 0x2f,
  0x52, 0x65, 0x61, 0x64, 0x56, 0x61, 0x72, 0x69, 0x61, 0x62, 0x6c, 0x65,
  0x4f, 0x70, 0x2f, 0x74, 0x72, 0x61, 0x6e, 0x73, 0x70, 0x6f, 0x73, 0x65,
  0x00, 0x00, 0x00, 0x00, 0x34, 0xfd, 0xff, 0xff, 0x24, 0x00, 0x00, 0x00,
  0x4b, 0x02, 0xc0, 0x3e, 0x8e, 0x80, 0x5d, 0xba, 0x90, 0x96, 0xa1, 0x3e,
  0xb7, 0x9d, 0x51, 0x3f, 0xef, 0x4c, 0xe6, 0xbd, 0x6f, 0xd0, 0xbe, 0xbc,
  0xc0, 0xb5, 0x0b, 0xbe, 0xe8, 0xae, 0x66, 0xbf, 0xd8, 0xa7, 0x18, 0xbf,
  0x42, 0xfe, 0xff, 0xff, 0x10, 0x00, 0x00, 0x00, 0x03, 0x00, 0x00, 0x00,
  0x10, 0x00, 0x00, 0x00, 0x34, 0x00, 0x00, 0x00, 0x01, 0x00, 0x00, 0x00,
  0x03, 0x00, 0x00, 0x00, 0x20, 0x00, 0x00, 0x00, 0x73, 0x65, 0x71, 0x75,
  0x65, 0x6e, 0x74, 0x69, 0x61, 0x6c, 0x5f, 0x32, 0x2f, 0x64, 0x65, 0x6e,
  0x73, 0x65, 0x5f, 0x36, 0x2f, 0x4d, 0x61, 0x74, 0x4d, 0x75, 0x6c, 0x5f,
  0x62, 0x69, 0x61, 0x73, 0x00, 0x00, 0x00, 0x00, 0xa4, 0xfd, 0xff, 0xff,
  0x0c, 0x00, 0x00, 0x00, 0xe3, 0x72, 0x3d, 0x3d, 0x3c, 0x46, 0xca, 0x3d,
  0x00, 0x00, 0x00, 0x00, 0x9a, 0xfe, 0xff, 0xff, 0x10, 0x00, 0x00, 0x00,
  0x02, 0x00, 0x00, 0x00, 0x10, 0x00, 0x00, 0x00, 0x34, 0x00, 0x00, 0x00,
  0x01, 0x00, 0x00, 0x00, 0x46, 0x00, 0x00, 0x00, 0x20, 0x00, 0x00, 0x00,
  0x73, 0x65, 0x71, 0x75, 0x65, 0x6e, 0x74, 0x69, 0x61, 0x6c, 0x5f, 0x32,
  0x2f, 0x64, 0x65, 0x6e, 0x73, 0x65, 0x5f, 0x37, 0x2f, 0x4d, 0x61, 0x74,
  0x4d, 0x75, 0x6c, 0x5f, 0x62, 0x69, 0x61, 0x73, 0x00, 0x00, 0x00, 0x00,
  0xfc, 0xfd, 0xff, 0xff, 0x18, 0x01, 0x00, 0x00, 0x00, 0x00, 0x00, 0x00,
  0x00, 0x00, 0x00, 0x00, 0xbd, 0xa9, 0x66, 0x3d, 0xd5, 0x29, 0x13, 0x3e,
  0x00, 0x00, 0x00, 0x00, 0x3a, 0xd5, 0x66, 0x3d, 0xb9, 0xd5, 0x65, 0x3d,
  0x00, 0x00, 0x00, 0x00, 0x23, 0xc1, 0x4e, 0xbd, 0x58, 0x44, 0x68, 0x3d,
  0xe5, 0x21, 0x49, 0xbd, 0x00, 0x00, 0x00, 0x00, 0x00, 0x00, 0x00, 0x00,
  0x58, 0x37, 0x53, 0xbd, 0xe5, 0xb7, 0x7f, 0x3d, 0x57, 0x38, 0x20, 0xbd,
  0x00, 0x00, 0x00, 0x00, 0xc5, 0xf3, 0x95, 0xbc, 0xcb, 0x4e, 0x4a, 0xbd,
  0xd2, 0xa8, 0x67, 0x3d, 0x84, 0x71, 0xbd, 0x3d, 0x3b, 0xc7, 0x47, 0xbd,
  0x38, 0x7b, 0x6b, 0x3d, 0x00, 0x00, 0x00, 0x00, 0x36, 0x6c, 0x4c, 0xbd,
  0xa7, 0xf4, 0x73, 0x3d, 0x68, 0xdf, 0x04, 0xbd, 0x02, 0x05, 0xc8, 0x3d,
  0x7f, 0x87, 0x4e, 0xbd, 0xff, 0x97, 0x53, 0xbd, 0x00, 0x00, 0x00, 0x00,
  0x54, 0x20, 0x68, 0x3d, 0xd7, 0xeb, 0x26, 0xbc, 0xc0, 0xa1, 0x0c, 0xbd,
  0xce, 0x13, 0x4c, 0xbd, 0xc4, 0x68, 0x6d, 0x3d, 0x6d, 0xe3, 0xce, 0xbc,
  0x99, 0x92, 0x93, 0x3d, 0x00, 0x00, 0x00, 0x00, 0xaa, 0x35, 0x73, 0x3d,
  0x00, 0x00, 0x00, 0x00, 0x00, 0x00, 0x00, 0x00, 0x1c, 0x52, 0x24, 0xbd,
  0x00, 0x00, 0x00, 0x00, 0x00, 0x00, 0x00, 0x00, 0x00, 0x00, 0x00, 0x00,
  0x00, 0x00, 0x00, 0x00, 0x26, 0x08, 0x66, 0xbd, 0x42, 0x7d, 0x3d, 0xbd,
  0xeb, 0x21, 0x6e, 0x3d, 0x2d, 0xf5, 0x4b, 0xbd, 0x1a, 0x4f, 0x64, 0xbd,
  0x9a, 0xaa, 0xb9, 0x3d, 0xb9, 0xd4, 0x39, 0xbd, 0x00, 0x00, 0x00, 0x00,
  0x3c, 0x81, 0x6b, 0x3d, 0x00, 0x00, 0x00, 0x00, 0x00, 0x00, 0x00, 0x00,
  0x00, 0x00, 0x00, 0x00, 0xbc, 0x13, 0x2c, 0xbd, 0xfa, 0x40, 0x67, 0x3d,
  0x00, 0x00, 0x00, 0x00, 0x71, 0x2e, 0x4e, 0xbd, 0x7a, 0xd5, 0xeb, 0xbc,
  0xbd, 0x20, 0x93, 0xbc, 0x00, 0x00, 0x00, 0x00, 0x00, 0x00, 0x00, 0x00,
  0x20, 0x06, 0xc0, 0x3d, 0xf8, 0x8a, 0x85, 0x3d, 0xb7, 0x8e, 0x6d, 0x3d,
  0x00, 0x00, 0x0e, 0x00, 0x14, 0x00, 0x04, 0x00, 0x00, 0x00, 0x08, 0x00,
  0x0c, 0x00, 0x10, 0x00, 0x0e, 0x00, 0x00, 0x00, 0x10, 0x00, 0x00, 0x00,
  0x01, 0x00, 0x00, 0x00, 0x10, 0x00, 0x00, 0x00, 0x34, 0x00, 0x00, 0x00,
  0x01, 0x00, 0x00, 0x00, 0x01, 0x00, 0x00, 0x00, 0x20, 0x00, 0x00, 0x00,
  0x73, 0x65, 0x71, 0x75, 0x65, 0x6e, 0x74, 0x69, 0x61, 0x6c, 0x5f, 0x32,
  0x2f, 0x64, 0x65, 0x6e, 0x73, 0x65, 0x5f, 0x38, 0x2f, 0x4d, 0x61, 0x74,
  0x4d, 0x75, 0x6c, 0x5f, 0x62, 0x69, 0x61, 0x73, 0x00, 0x00, 0x00, 0x00,
  0x70, 0xff, 0xff, 0xff, 0x04, 0x00, 0x00, 0x00, 0xbf, 0x05, 0x5c, 0xbd,
  0x04, 0x00, 0x00, 0x00, 0xd8, 0x00, 0x00, 0x00, 0x84, 0x00, 0x00, 0x00,
  0x44, 0x00, 0x00, 0x00, 0x18, 0x00, 0x00, 0x00, 0x14, 0x00, 0x14, 0x00,
  0x04, 0x00, 0x08, 0x00, 0x0c, 0x00, 0x00, 0x00, 0x00, 0x00, 0x00, 0x00,
  0x00, 0x00, 0x10, 0x00, 0x14, 0x00, 0x00, 0x00, 0x01, 0x00, 0x00, 0x00,
  0x0c, 0x00, 0x00, 0x00, 0x10, 0x00, 0x00, 0x00, 0x14, 0x00, 0x00, 0x00,
  0x01, 0x00, 0x00, 0x00, 0x08, 0x00, 0x00, 0x00, 0x01, 0x00, 0x00, 0x00,
  0x00, 0x00, 0x00, 0x00, 0x00, 0x00, 0x00, 0x00, 0x88, 0xff, 0xff, 0xff,
  0x00, 0x00, 0x00, 0x08, 0x10, 0x00, 0x00, 0x00, 0x1c, 0x00, 0x00, 0x00,
  0x28, 0x00, 0x00, 0x00, 0x1c, 0x00, 0x00, 0x00, 0x03, 0x00, 0x00, 0x00,
  0x07, 0x00, 0x00, 0x00, 0x09, 0x00, 0x00, 0x00, 0x0a, 0x00, 0x00, 0x00,
  0x01, 0x00, 0x00, 0x00, 0x08, 0x00, 0x00, 0x00, 0x00, 0x00, 0x00, 0x00,
  0x04, 0x00, 0x04, 0x00, 0x04, 0x00, 0x00, 0x00, 0xc4, 0xff, 0xff, 0xff,
  0x00, 0x00, 0x00, 0x08, 0x10, 0x00, 0x00, 0x00, 0x1c, 0x00, 0x00, 0x00,
  0x24, 0x00, 0x00, 0x00, 0x1c, 0x00, 0x00, 0x00, 0x03, 0x00, 0x00, 0x00,
  0x04, 0x00, 0x00, 0x00, 0x05, 0x00, 0x00, 0x00, 0x06, 0x00, 0x00, 0x00,
  0x01, 0x00, 0x00, 0x00, 0x07, 0x00, 0x00, 0x00, 0x00, 0x00, 0x00, 0x00,
  0x82, 0xff, 0xff, 0xff, 0x00, 0x00, 0x00, 0x01, 0x14, 0x00, 0x18, 0x00,
  0x00, 0x00, 0x08, 0x00, 0x0c, 0x00, 0x07, 0x00, 0x10, 0x00, 0x00, 0x00,
  0x00, 0x00, 0x14, 0x00, 0x14, 0x00, 0x00, 0x00, 0x00, 0x00, 0x00, 0x08,
  0x10, 0x00, 0x00, 0x00, 0x1c, 0x00, 0x00, 0x00, 0x24, 0x00, 0x00, 0x00,
  0x1c, 0x00, 0x00, 0x00, 0x03, 0x00, 0x00, 0x00, 0x01, 0x00, 0x00, 0x00,
  0x02, 0x00, 0x00, 0x00, 0x03, 0x00, 0x00, 0x00, 0x01, 0x00, 0x00, 0x00,
  0x04, 0x00, 0x00, 0x00, 0x00, 0x00, 0x00, 0x00, 0xd2, 0xff, 0xff, 0xff,
  0x00, 0x00, 0x00, 0x01, 0x02, 0x00, 0x00, 0x00, 0x10, 0x00, 0x00, 0x00,
  0x04, 0x00, 0x00, 0x00, 0xe6, 0xff, 0xff, 0xff, 0x00, 0x00, 0x00, 0x0e,
  0xfa, 0xff, 0xff, 0xff, 0x00, 0x09, 0x06, 0x00, 0x06, 0x00, 0x05, 0x00,
  0x06, 0x00, 0x00, 0x00, 0x00, 0x09, 0x06, 0x00, 0x08, 0x00, 0x07, 0x00,
  0x06, 0x00, 0x00, 0x00, 0x00, 0x00, 0x00, 0x09
};
